{
  "00": 0,
  "01": 1,
  "02": 2,
  "03": 3,
  "04": 4,
  "05": 5,
  "06": 6,
  "07": 7,
  "08": 8,
  "09": 9,
  "0a": 10,
  "0b": 11,
  "0c": 12,
  "0d": 13,
  "0e": 14,
  "0f": 15,
  "10": 16,
  "11": 17,
  "12": 18,
  "13": 19,
  "14": 20,
  "15": 21,
  "16": 22,
  "17": 23,
  "18": 24,
  "19": 25,
  "1a": 26,
  "1b": 27,
  "1c": 28,
  "1d": 29,
  "1e": 30,
  "1f": 31,
  "20": 32,
  "21": 33,
  "22": 34,
  "23": 35,
  "24": 36,
  "25": 37,
  "26": 38,
  "27": 39,
  "28": 40,
  "29": 41,
  "2a": 42,
  "2b": 43,
  "2c": 44,
  "2d": 45,
  "2e": 46,
  "2f": 47,
  "30": 48,
  "31": 49,
  "32": 50,
  "33": 51,
  "34": 52,
  "35": 53,
  "36": 54,
  "37": 55,
  "38": 56,
  "39": 57,
  "3a": 58,
  "3b": 59,
  "3c": 60,
  "3d": 61,
  "3e": 62,
  "3f": 63,
  "40": 64,
  "41": 65,
  "42": 66,
  "43": 67,
  "44": 68,
  "45": 69,
  "46": 70,
  "47": 71,
  "48": 72,
  "49": 73,
  "4a": 74,
  "4b": 75,
  "4c": 76,
  "4d": 77,
  "4e": 78,
  "4f": 79,
  "50": 80,
  "51": 81,
  "52": 82,
  "53": 83,
  "54": 84,
  "55": 85,
  "56": 86,
  "57": 87,
  "58": 88,
  "59": 89,
  "5a": 90,
  "5b": 91,
  "5c": 92,
  "5d": 93,
  "5e": 94,
  "5f": 95,
  "60": 96,
  "61": 97,
  "62": 98,
  "63": 99,
  "64": 100,
  "65": 101,
  "66": 102,
  "67": 103,
  "68": 104,
  "69": 105,
  "6a": 106,
  "6b": 107,
  "6c": 108,
  "6d": 109,
  "6e": 110,
  "6f": 111,
  "70": 112,
  "71": 113,
  "72": 114,
  "73": 115,
  "74": 116,
  "75": 117,
  "76": 118,
  "77": 119,
  "78": 120,
  "79": 121,
  "7a": 122,
  "7b": 123,
  "7c": 124,
  "7d": 125,
  "7e": 126,
  "7f": 127,
  "80": 128,
  "81": 129,
  "82": 130,
  "83": 131,
  "84": 132,
  "85": 133,
  "86": 134,
  "87": 135,
  "88": 136,
  "89": 137,
  "8a": 138,
  "8b": 139,
  "8c": 140,
  "8d": 141,
  "8e": 142,
  "8f": 143,
  "90": 144,
  "91": 145,
  "92": 146,
  "93": 147,
  "94": 148,
  "95": 149,
  "96": 150,
  "97": 151,
  "98": 152,
  "99": 153,
  "9a": 154,
  "9b": 155,
  "9c": 156,
  "9d": 157,
  "9e": 158,
  "9f": 159,
  "a0": 160,
  "a1": 161,
  "a2": 162,
  "a3": 163,
  "a4": 164,
  "a5": 165,
  "a6": 166,
  "a7": 167,
  "a8": 168,
  "a9": 169,
  "aa": 170,
  "ab": 171,
  "ac": 172,
  "ad": 173,
  "ae": 174,
  "af": 175,
  "b0": 176,
  "b1": 177,
  "b2": 178,
  "b3": 179,
  "b4": 180,
  "b5": 181,
  "b6": 182,
  "b7": 183,
  "b8": 184,
  "b9": 185,
  "ba": 186,
  "bb": 187,
  "bc": 188,
  "bd": 189,
  "be": 190,
  "bf": 191,
  "c0": 192,
  "c1": 193,
  "c2": 194,
  "c3": 195,
  "c4": 196,
  "c5": 197,
  "c6": 198,
  "c7": 199,
  "c8": 200,
  "c9": 201,
  "ca": 202,
  "cb": 203,
  "cc": 204,
  "cd": 205,
  "ce": 206,
  "cf": 207,
  "d0": 208,
  "d1": 209,
  "d2": 210,
  "d3": 211,
  "d4": 212,
  "d5": 213,
  "d6": 214,
  "d7": 215,
  "d8": 216,
  "d9": 217,
  "da": 218,
  "db": 219,
  "dc": 220,
  "dd": 221,
  "de": 222,
  "df": 223,
  "e0": 224,
  "e1": 225,
  "e2": 226,
  "e3": 227,
  "e4": 228,
  "e5": 229,
  "e6": 230,
  "e7": 231,
  "e8": 232,
  "e9": 233,
  "ea": 234,
  "eb": 235,
  "ec": 236,
  "ed": 237,
  "ee": 238,
  "ef": 239,
  "f0": 240,
  "f1": 241,
  "f2": 242,
  "f3": 243,
  "f4": 244,
  "f5": 245,
  "f6": 246,
  "f7": 247,
  "f8": 248,
  "f9": 249,
  "fa": 250,
  "fb": 251,
  "fc": 252,
  "fd": 253,
  "fe": 254,
  "ff": 255,
  "5b5041445d": 256,
  "5b554e4b5d": 257,
  "5b424f535d": 258,
  "5b454f535d": 259,
  "696e": 260,
  "656e": 261,
  "6f6e": 262,
  "7469": 263,
  "616c": 264,
  "6573": 265,
  "6572": 266,
  "74696f6e": 267,
  "6172": 268,
  "7374": 269,
  "656e74": 270,
  "616e": 271,
  "6f72": 272,
  "696e67": 273,
  "7468": 274,
  "656c": 275,
  "6563": 276,
  "6174": 277,
  "6973": 278,
  "746f": 279,
  "7265": 280,
  "61696e": 281,
  "7572": 282,
  "6e65": 283,
  "6f66": 284,
  "726f": 285,
  "616e64": 286,
  "6564": 287,
  "7473": 288,
  "756e": 289,
  "6173": 290,
  "6b73": 291,
  "697a": 292,
  "6669": 293,
  "7261696e": 294,
  "6365": 295,
  "7574": 296,
  "6967": 297,
  "6d656e74": 298,
  "6f64": 299,
  "746976": 300,
  "696d": 301,
  "6174696f6e": 302,
  "6164": 303,
  "6c65": 304,
  "747261696e": 305,
  "6375": 306,
  "746865": 307,
  "6163": 308,
  "7477": 309,
  "6d6f64": 310,
  "6d73": 311,
  "70726f": 312,
  "646174": 313,
  "6964": 314,
  "7175": 315,
  "6c656172": 316,
  "6c6561726e": 317,
  "6167": 318,
  "666963": 319,
  "636f6e": 320,
  "6c79": 321,
  "63616c": 322,
  "6c69": 323,
  "7365": 324,
  "697a65": 325,
  "6d6f64656c": 326,
  "6d6f64656c73": 327,
  "6170": 328,
  "6e657572": 329,
  "6e657572616c": 330,
  "6e657477": 331,
  "6e6574776f72": 332,
  "6e6574776f726b73": 333,
  "666f72": 334,
  "657273": 335,
  "6f6375": 336,
  "6469": 337,
  "66756e": 338,
  "7574696f6e": 339,
  "656e6365": 340,
  "707265": 341,
  "6c6561726e696e67": 342,
  "707574": 343,
  "696768": 344,
  "6f6c": 345,
  "636573": 346,
  "746173": 347,
  "7461736b73": 348,
  "696e65": 349,
  "656374696f6e": 350,
  "6c61": 351,
  "706572": 352,
  "696e74": 353,
  "61746573": 354,
  "7765": 355,
  "617265": 356,
  "766973": 357,
  "616d": 358,
  "757374": 359,
  "766f6c": 360,
  "766f6c7574696f6e": 361,
  "74686973": 362,
  "646f": 363,
  "74697665": 364,
  "7375": 365,
  "73657175": 366,
  "747261696e696e67": 367,
  "66756e63": 368,
  "66756e6374696f6e": 369,
  "446f6375": 370,
  "446f63756d656e74": 371,
  "53656374696f6e": 372,
  "617474": 373,
  "64617461": 374,
  "656d": 375,
  "6f7574": 376,
  "74696e67": 377,
  "6c696b": 378,
  "6c696b65": 379,
  "706563": 380,
  "657365": 381,
  "656368": 382,
  "706172": 383,
  "7765696768": 384,
  "5265": 385,
  "636f": 386,
  "766572": 387,
  "686173": 388,
  "65726e": 389,
  "706c79": 390,
  "70726f636573": 391,
  "70726f63657373": 392,
  "73657175656e": 393,
  "7469666963": 394,
  "696e74656c": 395,
  "696e74656c6c": 396,
  "696e74656c6c6967": 397,
  "696e74656c6c6967656e6365": 398,
  "696d6167": 399,
  "697468": 400,
  "7874": 401,
  "657261": 402,
  "756e64": 403,
  "756e646572": 404,
  "756e6465727374": 405,
  "756e6465727374616e64": 406,
  "737465": 407,
  "616368": 408,
  "6f6e73": 409,
  "686964": 410,
  "68696464": 411,
  "68696464656e": 412,
  "636f6e74": 413,
  "726164": 414,
  "72616469": 415,
  "72616469656e74": 416,
  "6c6f": 417,
  "6c6f73": 418,
  "6c6f7373": 419,
  "7468656f72": 420,
  "7469766174696f6e": 421,
  "66756e6374696f6e73": 422,
  "46696e65": 423,
  "74756e": 424,
  "74756e696e67": 425,
  "61646170": 426,
  "616461707473": 427,
  "747261696e6564": 428,
  "73706563": 429,
  "7370656369": 430,
  "7370656369666963": 431,
  "646f77": 432,
  "646f776e": 433,
  "646f776e7374": 434,
  "646f776e73747265": 435,
  "646f776e73747265616d": 436,
  "66726f": 437,
  "66726f6d": 438,
  "6974": 439,
  "696d697a65": 440,
  "6d61696e": 441,
  "6162": 442,
  "656d70": 443,
  "737475": 444,
  "6d61": 445,
  "636f6d": 446,
  "76697369": 447,
  "7665726669": 448,
  "766572666974": 449,
  "76657266697474696e67": 450,
  "6775": 451,
  "6574": 452,
  "666f726d": 453,
  "656c66": 454,
  "617474656e": 455,
  "617474656e74696f6e": 456,
  "616c6c": 457,
  "526563": 458,
  "72616e": 459,
  "72616e73": 460,
  "746966696369": 461,
  "746966696369616c": 462,
  "7369": 463,
  "6972": 464,
  "6566": 465,
  "6174696f6e73": 466,
  "766964": 467,
  "6473": 468,
  "6d656e7473": 469,
  "4e65": 470,
  "4e657572": 471,
  "4e6575726f6e73": 472,
  "636f6d707574": 473,
  "636f6d70757465": 474,
  "776569676874": 475,
  "7765696768746564": 476,
  "73756d73": 477,
  "696e70": 478,
  "696e7075": 479,
  "696e70757473": 480,
  "6170706c79": 481,
  "61637469766174696f6e": 482,
  "6f7574707574": 483,
  "76616c": 484,
  "76616c75": 485,
  "76616c756573": 486,
  "6d757374": 487,
  "617263": 488,
  "61726368": 489,
  "657874": 490,
  "736573": 491,
  "747261696e73": 492,
  "776172": 493,
  "6461": 494,
  "737472": 495,
  "6374": 496,
  "706572766973": 497,
  "7065727669736564": 498,
  "6c6162": 499,
  "6c6162656c": 500,
  "6c6162656c6564": 501,
  "6461746173": 502,
  "646174617365": 503,
  "6461746173657473": 504,
  "5472616e73": 505,
  "5472616e73666f726d": 506,
  "5472616e73666f726d657273": 507,
  "757365": 508,
  "73656c66": 509,
  "6d656368": 510,
  "6d656368616e": 511,
  "6d656368616e6973": 512,
  "6d656368616e69736d73": 513,
  "73657175656e636573": 514,
  "706172616c6c": 515,
  "706172616c6c656c": 516,
  "63616c6375": 517,
  "63616c63756c": 518,
  "63616c63756c61746573": 519,
  "5468": 520,
  "54686973": 521,
  "7468656f7279": 522,
  "7265766f6c7574696f6e": 523,
  "7265766f6c7574696f6e697a": 524,
  "7265766f6c7574696f6e697a6564": 525,
  "6f7572": 526,
  "756e6465727374616e64696e67": 527,
  "6d6f6465726e": 528,
  "7379": 529,
  "7379737465": 530,
  "73797374656d73": 531,
  "6d75": 532,
  "746963616c": 533,
  "6963616c": 534,
  "7468657365": 535,
  "6565": 536,
  "436f6e": 537,
  "436f6e766f6c7574696f6e": 538,
  "436f6e766f6c7574696f6e616c": 539,
  "68696768": 540,
  "686967686c79": 541,
  "656666": 542,
  "6566666563": 543,
  "656666656374697665": 544,
  "696d616765": 545,
  "766973696f6e": 546,
  "77697468": 547,
  "75616c": 548,
  "706c65": 549,
  "65736561726368": 550,
  "3031": 551,
  "4772616469656e74": 552,
  "646573": 553,
  "64657363": 554,
  "64657363656e74": 555,
  "6974657261": 556,
  "6974657261746976": 557,
  "6974657261746976656c": 558,
  "6974657261746976656c79": 559,
  "61646a": 560,
  "61646a757374": 561,
  "61646a75737473": 562,
  "706172616d": 563,
  "706172616d6574": 564,
  "706172616d6574657273": 565,
  "6d696e": 566,
  "6d696e696d697a65": 567,
  "4172": 568,
  "4172746966696369616c": 569,
  "6d616368": 570,
  "6d616368696e": 571,
  "6d616368696e6573": 572,
  "736f66": 573,
  "736f667477": 574,
  "736f667477617265": 575,
  "616e6365": 576,
  "616269": 577,
  "6162696c69": 578,
  "6162696c6974": 579,
  "6162696c697479": 580,
  "52656775": 581,
  "526567756c": 582,
  "526567756c6172": 583,
  "526567756c6172697a": 584,
  "526567756c6172697a6174696f6e": 585,
  "74656368": 586,
  "746563686e": 587,
  "746563686e69": 588,
  "746563686e697175": 589,
  "746563686e6971756573": 590,
  "64726f": 591,
  "64726f70": 592,
  "64726f706f7574": 593,
  "746f6b": 594,
  "746f6b656e": 595,
  "3032": 596,
  "4578": 597,
  "4578706572": 598,
  "45787065727473": 599,
  "656d70686173": 600,
  "656d70686173697a65": 601,
  "74686174": 602,
  "636f6e7369": 603,
  "636f6e73697374": 604,
  "636f6e73697374656e74": 605,
  "73747564": 606,
  "7374756479": 607,
  "6e6563": 608,
  "6e65636573": 609,
  "6e6563657373": 610,
  "6e65636573736172": 611,
  "6e6563657373617279": 612,
  "6d617374": 613,
  "6d6173746572": 614,
  "646f6d61696e": 615,
  "75726573": 616,
  "69656e": 617,
  "70726576": 618,
  "70726576656e74": 619,
  "6f76657266697474696e67": 620,
  "47656e": 621,
  "47656e657261": 622,
  "47656e65726174697665": 623,
  "4149": 624,
  "637265": 625,
  "63726561746573": 626,
  "6f726967": 627,
  "6f726967696e": 628,
  "6f726967696e616c": 629,
  "636f6e74656e74": 630,
  "74657874": 631,
  "696d61676573": 632,
  "6175": 633,
  "61756469": 634,
  "617564696f": 635,
  "4d616368": 636,
  "4d616368696e65": 637,
  "666f6375": 638,
  "666f6375736573": 639,
  "616c67": 640,
  "616c676f72": 641,
  "616c676f72697468": 642,
  "616c676f726974686d73": 643,
  "70617474": 644,
  "7061747465726e": 645,
  "7061747465726e73": 646,
  "426163": 647,
  "4261636b": 648,
  "4261636b70726f": 649,
  "4261636b70726f70": 650,
  "4261636b70726f706167": 651,
  "4261636b70726f7061676174696f6e": 652,
  "6772616469656e74": 653,
  "6772616469656e7473": 654,
  "7570": 655,
  "7570646174": 656,
  "757064617465": 657,
  "77656967687473": 658,
  "5265637572": 659,
  "526563757272": 660,
  "526563757272656e74": 661,
  "73657175656e7469": 662,
  "73657175656e7469616c": 663,
  "6279": 664,
  "6d61696e74": 665,
  "6d61696e7461696e": 666,
  "6d61696e7461696e696e67": 667,
  "737461746573": 668,
  "5265696e": 669,
  "5265696e666f72": 670,
  "5265696e666f726365": 671,
  "5265696e666f7263656d656e74": 672,
  "6167656e74": 673,
  "6167656e7473": 674,
  "6d6178": 675,
  "6d6178696d697a65": 676,
  "63756d75": 677,
  "63756d756c61": 678,
  "63756d756c6174697665": 679,
  "7265776172": 680,
  "72657761726473": 681,
  "656e76": 682,
  "656e766972": 683,
  "656e7669726f6e": 684,
  "656e7669726f6e6d656e7473": 685,
  "4f76657266697474696e67": 686,
  "6f63": 687,
  "6f6363": 688,
  "6f63637572": 689,
  "6f6363757273": 690,
  "7768": 691,
  "7768656e": 692,
  "6d656d": 693,
  "6d656d6f72": 694,
  "6d656d6f72697a65": 695,
  "696e737465": 696,
  "696e7374656164": 697,
  "67656e": 698,
  "67656e6572": 699,
  "67656e6572616c": 700,
  "67656e6572616c697a": 701,
  "67656e6572616c697a696e67": 702,
  "7573": 703,
  "546f": 704,
  "636f6e6365": 705,
  "636f6e636570": 706,
  "636f6e63657074": 707,
  "646565": 708,
  "646565706c79": 709,
  "616e616c": 710,
  "616e616c79": 711,
  "616e616c797a": 712,
  "616e616c797a65": 713,
  "697473": 714,
  "66756e6461": 715,
  "66756e64616d656e74": 716,
  "66756e64616d656e74616c": 717,
  "766172": 718,
  "76617269": 719,
  "766172696162": 720,
  "7661726961626c": 721,
  "7661726961626c6573": 722,
  "526563656e74": 723,
  "7374756469": 724,
  "73747564696573": 725,
  "70726f766964": 726,
  "70726f76696465": 727,
  "656d706972": 728,
  "656d7069726963616c": 729,
  "65766964": 730,
  "65766964656e6365": 731,
  "737570": 732,
  "73757070": 733,
  "737570706f72": 734,
  "737570706f7274696e67": 735,
  "636c61": 736,
  "636c61696d": 737,
  "636c61696d73": 738,
  "5765": 739,
  "62616c": 740,
  "62616c616e6365": 741,
  "7468656f7265": 742,
  "7468656f7265746963616c": 743,
  "636f6e7374": 744,
  "636f6e73747261696e": 745,
  "636f6e73747261696e7473": 746,
  "616374": 747,
  "61637475616c": 748,
  "696d706c65": 749,
  "696d706c656d656e74": 750,
  "696d706c656d656e746174696f6e": 751,
  "72657175": 752,
  "7265717569": 753,
  "72657175697265": 754,
  "726571756972656d656e7473": 755,
  "3030": 756,
  "73657175656e6365": 757,
  "556e": 758,
  "556e7375": 759,
  "556e73757065727669736564": 760,
  "66696e": 761,
  "66696e6473": 762,
  "73747275": 763,
  "737472756374": 764,
  "73747275637475726573": 765,
  "756e6c6162656c6564": 766,
  "4c616e": 767,
  "4c616e6775": 768,
  "4c616e67756167": 769,
  "4c616e6775616765": 770,
  "7072656469": 771,
  "70726564696374": 772,
  "70726f62": 773,
  "70726f626162696c697479": 774,
  "6469737472": 775,
  "646973747269": 776,
  "64697374726962": 777,
  "646973747269627574696f6e": 778,
  "6e657874": 779,
  "5375": 780,
  "53757065727669736564": 781,
  "696e707574": 782,
  "746172": 783,
  "74617267": 784,
  "746172676574": 785,
  "6f646572": 786,
  "5265736561726368": 787,
  "5265736561726368657273": 788,
  "636f6e74696e": 789,
  "636f6e74696e75": 790,
  "636f6e74696e7565": 791,
  "6578": 792,
  "657870": 793,
  "6578706c": 794,
  "6578706c6f72": 795,
  "6578706c6f7265": 796,
  "6e6577": 797,
  "64696d": 798,
  "64696d656e": 799,
  "64696d656e7369": 800,
  "64696d656e73696f6e73": 801,
  "7363": 802,
  "736369656e": 803,
  "736369656e7469666963": 804,
  "6669656c": 805,
  "6669656c64": 806,
  "467574": 807,
  "46757475": 808,
  "467574757265": 809,
  "646972": 810,
  "646972656374696f6e": 811,
  "646972656374696f6e73": 812,
  "706f": 813,
  "706f696e74": 814,
  "746f776172": 815,
  "746f77617264": 816,
  "616476": 817,
  "616476616e": 818,
  "616476616e63": 819,
  "616476616e636564": 820,
  "7265736561726368": 821,
  "6879": 822,
  "687962": 823,
  "68796272": 824,
  "687962726964": 825,
  "6d65": 826,
  "6d657468": 827,
  "6d6574686f64": 828,
  "6d6574686f646f6c": 829,
  "6d6574686f646f6c6f": 830,
  "6d6574686f646f6c6f67": 831,
  "6d6574686f646f6c6f6769": 832,
  "6d6574686f646f6c6f67696573": 833,
  "5072": 834,
  "50726163": 835,
  "50726163746963616c": 836,
  "617070": 837,
  "6170706c69": 838,
  "6170706c6963": 839,
  "6170706c69636174696f6e73": 840,
  "646973": 841,
  "646973636f": 842,
  "646973636f766572": 843,
  "646973636f76657279": 844,
  "7669736962": 845,
  "76697369626c65": 846,
  "646169": 847,
  "6461696c79": 848,
  "6f706572": 849,
  "6f7065726174696f6e73": 850,
  "4163": 851,
  "41637469766174696f6e": 852,
  "52654c": 853,
  "52654c55": 854,
  "696e74726f": 855,
  "696e74726f64": 856,
  "696e74726f6475": 857,
  "696e74726f64756365": 858,
  "6e6f6e": 859,
  "6c696e65": 860,
  "6c696e656172": 861,
  "6c696e6561726974": 862,
  "6c696e656172697479": 863,
  "696e746f": 864,
  "4869": 865,
  "48697374": 866,
  "486973746f72": 867,
  "486973746f726963616c": 868,
  "70657273": 869,
  "70657273706563": 870,
  "70657273706563746976": 871,
  "706572737065637469766573": 872,
  "68656c": 873,
  "68656c70": 874,
  "636f6e74657874": 875,
  "636f6e7465787475616c": 876,
  "636f6e7465787475616c697a65": 877,
  "65766f6c7574696f6e": 878,
  "696465": 879,
  "6964656173": 880,
  "446565": 881,
  "44656570": 882,
  "75736573": 883,
  "6172746966696369616c": 884,
  "6d756c": 885,
  "6d756c7469": 886,
  "6d756c7469706c65": 887,
  "6c6179": 888,
  "6c6179657273": 889
}