{
  "00": 0,
  "01": 1,
  "02": 2,
  "03": 3,
  "04": 4,
  "05": 5,
  "06": 6,
  "07": 7,
  "08": 8,
  "09": 9,
  "0a": 10,
  "0b": 11,
  "0c": 12,
  "0d": 13,
  "0e": 14,
  "0f": 15,
  "10": 16,
  "11": 17,
  "12": 18,
  "13": 19,
  "14": 20,
  "15": 21,
  "16": 22,
  "17": 23,
  "18": 24,
  "19": 25,
  "1a": 26,
  "1b": 27,
  "1c": 28,
  "1d": 29,
  "1e": 30,
  "1f": 31,
  "20": 32,
  "21": 33,
  "22": 34,
  "23": 35,
  "24": 36,
  "25": 37,
  "26": 38,
  "27": 39,
  "28": 40,
  "29": 41,
  "2a": 42,
  "2b": 43,
  "2c": 44,
  "2d": 45,
  "2e": 46,
  "2f": 47,
  "30": 48,
  "31": 49,
  "32": 50,
  "33": 51,
  "34": 52,
  "35": 53,
  "36": 54,
  "37": 55,
  "38": 56,
  "39": 57,
  "3a": 58,
  "3b": 59,
  "3c": 60,
  "3d": 61,
  "3e": 62,
  "3f": 63,
  "40": 64,
  "41": 65,
  "42": 66,
  "43": 67,
  "44": 68,
  "45": 69,
  "46": 70,
  "47": 71,
  "48": 72,
  "49": 73,
  "4a": 74,
  "4b": 75,
  "4c": 76,
  "4d": 77,
  "4e": 78,
  "4f": 79,
  "50": 80,
  "51": 81,
  "52": 82,
  "53": 83,
  "54": 84,
  "55": 85,
  "56": 86,
  "57": 87,
  "58": 88,
  "59": 89,
  "5a": 90,
  "5b": 91,
  "5c": 92,
  "5d": 93,
  "5e": 94,
  "5f": 95,
  "60": 96,
  "61": 97,
  "62": 98,
  "63": 99,
  "64": 100,
  "65": 101,
  "66": 102,
  "67": 103,
  "68": 104,
  "69": 105,
  "6a": 106,
  "6b": 107,
  "6c": 108,
  "6d": 109,
  "6e": 110,
  "6f": 111,
  "70": 112,
  "71": 113,
  "72": 114,
  "73": 115,
  "74": 116,
  "75": 117,
  "76": 118,
  "77": 119,
  "78": 120,
  "79": 121,
  "7a": 122,
  "7b": 123,
  "7c": 124,
  "7d": 125,
  "7e": 126,
  "7f": 127,
  "80": 128,
  "81": 129,
  "82": 130,
  "83": 131,
  "84": 132,
  "85": 133,
  "86": 134,
  "87": 135,
  "88": 136,
  "89": 137,
  "8a": 138,
  "8b": 139,
  "8c": 140,
  "8d": 141,
  "8e": 142,
  "8f": 143,
  "90": 144,
  "91": 145,
  "92": 146,
  "93": 147,
  "94": 148,
  "95": 149,
  "96": 150,
  "97": 151,
  "98": 152,
  "99": 153,
  "9a": 154,
  "9b": 155,
  "9c": 156,
  "9d": 157,
  "9e": 158,
  "9f": 159,
  "a0": 160,
  "a1": 161,
  "a2": 162,
  "a3": 163,
  "a4": 164,
  "a5": 165,
  "a6": 166,
  "a7": 167,
  "a8": 168,
  "a9": 169,
  "aa": 170,
  "ab": 171,
  "ac": 172,
  "ad": 173,
  "ae": 174,
  "af": 175,
  "b0": 176,
  "b1": 177,
  "b2": 178,
  "b3": 179,
  "b4": 180,
  "b5": 181,
  "b6": 182,
  "b7": 183,
  "b8": 184,
  "b9": 185,
  "ba": 186,
  "bb": 187,
  "bc": 188,
  "bd": 189,
  "be": 190,
  "bf": 191,
  "c0": 192,
  "c1": 193,
  "c2": 194,
  "c3": 195,
  "c4": 196,
  "c5": 197,
  "c6": 198,
  "c7": 199,
  "c8": 200,
  "c9": 201,
  "ca": 202,
  "cb": 203,
  "cc": 204,
  "cd": 205,
  "ce": 206,
  "cf": 207,
  "d0": 208,
  "d1": 209,
  "d2": 210,
  "d3": 211,
  "d4": 212,
  "d5": 213,
  "d6": 214,
  "d7": 215,
  "d8": 216,
  "d9": 217,
  "da": 218,
  "db": 219,
  "dc": 220,
  "dd": 221,
  "de": 222,
  "df": 223,
  "e0": 224,
  "e1": 225,
  "e2": 226,
  "e3": 227,
  "e4": 228,
  "e5": 229,
  "e6": 230,
  "e7": 231,
  "e8": 232,
  "e9": 233,
  "ea": 234,
  "eb": 235,
  "ec": 236,
  "ed": 237,
  "ee": 238,
  "ef": 239,
  "f0": 240,
  "f1": 241,
  "f2": 242,
  "f3": 243,
  "f4": 244,
  "f5": 245,
  "f6": 246,
  "f7": 247,
  "f8": 248,
  "f9": 249,
  "fa": 250,
  "fb": 251,
  "fc": 252,
  "fd": 253,
  "fe": 254,
  "ff": 255,
  "5b5041445d": 256,
  "5b554e4b5d": 257,
  "5b424f535d": 258,
  "5b454f535d": 259,
  "656e": 260,
  "6572": 261,
  "696e": 262,
  "6865": 263,
  "616e": 264,
  "6f6e": 265,
  "7469": 266,
  "6573": 267,
  "656c": 268,
  "746f": 269,
  "6d6f": 270,
  "746865": 271,
  "616e64": 272,
  "6c69": 273,
  "636f": 274,
  "6d6f64": 275,
  "6d6f64656c": 276,
  "6172": 277,
  "696e67": 278,
  "6564": 279,
  "6f72": 280,
  "616c": 281,
  "6174": 282,
  "74696f6e": 283,
  "656e74": 284,
  "6f66": 285,
  "7473": 286,
  "6973": 287,
  "6c65": 288,
  "7369": 289,
  "746963": 290,
  "434f": 291,
  "434f4c": 292,
  "434f4c4c": 293,
  "434f4c4c49": 294,
  "434f4c4c4953": 295,
  "434f4c4c495349": 296,
  "434f4c4c4953494f": 297,
  "434f4c4c4953494f4e": 298,
  "7472": 299,
  "7072": 300,
  "6e65": 301,
  "746f6b": 302,
  "746f6b656e": 303,
  "7573": 304,
  "7765": 305,
  "636f6c": 306,
  "636f6c6c69": 307,
  "656e6572": 308,
  "656e657267": 309,
  "656e65726779": 310,
  "666f72": 311,
  "747261": 312,
  "747261696e": 313,
  "546865": 314,
  "6163": 315,
  "756d": 316,
  "6768": 317,
  "646572": 318,
  "616e67": 319,
  "6167": 320,
  "747261696e696e67": 321,
  "7465": 322,
  "6174696f6e": 323,
  "696768": 324,
  "6f70": 325,
  "766573": 326,
  "6173": 327,
  "636f6c6c697369": 328,
  "636f6c6c6973696f6e": 329,
  "6d656e74": 330,
  "706c65": 331,
  "6c6f": 332,
  "314d": 333,
  "6465": 334,
  "6c616e67": 335,
  "6c616e6775": 336,
  "6c616e67756167": 337,
  "6c616e6775616765": 338,
  "6c656172": 339,
  "6c6561726e": 340,
  "7874": 341,
  "656e63": 342,
  "74656e": 343,
  "74656e74696f6e": 344,
  "7265": 345,
  "6164": 346,
  "657273": 347,
  "776f72": 348,
  "7765696768": 349,
  "77656967687473": 350,
  "61636b": 351,
  "616d": 352,
  "697a": 353,
  "697a6572": 354,
  "7374": 355,
  "726573": 356,
  "636f6e": 357,
  "6d6f6d656e74": 358,
  "6d6f6d656e74756d": 359,
  "7468": 360,
  "706172": 361,
  "706172746963": 362,
  "7061727469636c": 363,
  "7061727469636c6573": 364,
  "656564": 365,
  "616c6c": 366,
  "666f726d": 367,
  "5765": 368,
  "7363": 369,
  "6368": 370,
  "636f6d": 371,
  "636f6d70": 372,
  "636f6d7075": 373,
  "70726564": 374,
  "7072656469": 375,
  "707265646963": 376,
  "7365": 377,
  "736571": 378,
  "73657175": 379,
  "73657175656e63": 380,
  "73657175656e6365": 381,
  "617474656e74696f6e": 382,
  "746f6b656e73": 383,
  "656d": 384,
  "656d62": 385,
  "656d626564": 386,
  "656d62656464": 387,
  "656d62656464696e67": 388,
  "6e6574": 389,
  "6e6574776f72": 390,
  "6e6574776f726b": 391,
  "61746573": 392,
  "6261636b": 393,
  "6f707469": 394,
  "6f7074696d": 395,
  "6f7074696d697a6572": 396,
  "63616e": 397,
  "646973": 398,
  "6c61": 399,
  "6c6179": 400,
  "626f": 401,
  "617264": 402,
  "7068": 403,
  "706879": 404,
  "7068797369": 405,
  "706879736963": 406,
  "636f6e73": 407,
  "636f6e736572": 408,
  "416e": 409,
  "656c6173": 410,
  "656c6173746963": 411,
  "6b696e": 412,
  "6b696e65": 413,
  "6b696e65746963": 414,
  "766572": 415,
  "696e746f": 416,
  "7370": 417,
  "6c6561726e696e67": 418,
  "66656564": 419,
  "74657874": 420,
  "6c6f73": 421,
  "6c6f7373": 422,
  "616c69": 423,
  "6572706c65": 424,
  "6572706c6578": 425,
  "6572706c657869": 426,
  "6572706c65786974": 427,
  "6572706c6578697479": 428,
  "304d": 429,
  "736d": 430,
  "736d616c6c": 431,
  "6465636f": 432,
  "6465636f646572": 433,
  "6f6e6c": 434,
  "6f6e6c79": 435,
  "5472": 436,
  "5472616e": 437,
  "5472616e73": 438,
  "5472616e73666f726d": 439,
  "5472616e73666f726d6572": 440,
  "617265": 441,
  "6672": 442,
  "66726f": 443,
  "66726f6d": 444,
  "736372": 445,
  "7363726174": 446,
  "73637261746368": 447,
  "636f6d707574": 448,
  "636f6d7075746572": 449,
  "4350": 450,
  "435055": 451,
  "6c6561726e73": 452,
  "70726564696374": 453,
  "6e657874": 454,
  "75736573": 455,
  "6361": 456,
  "63617573": 457,
  "63617573616c": 458,
  "73656c": 459,
  "73656c66": 460,
  "72656164": 461,
  "707265": 462,
  "70726576": 463,
  "7072657669": 464,
  "70726576696f": 465,
  "70726576696f7573": 466,
  "456163": 467,
  "45616368": 468,
  "72657072": 469,
  "726570726573": 470,
  "726570726573656e74": 471,
  "726570726573656e746564": 472,
  "6279": 473,
  "7665": 474,
  "766563": 475,
  "766563746f": 476,
  "766563746f72": 477,
  "6e756d": 478,
  "6e756d62": 479,
  "6e756d62657273": 480,
  "4174": 481,
  "417474656e74696f6e": 482,
  "68656164": 483,
  "6865616473": 484,
  "636f6d70757465": 485,
  "72656c": 486,
  "72656c6174696f6e": 487,
  "72656c6174696f6e73": 488,
  "72656c6174696f6e7368": 489,
  "72656c6174696f6e736869": 490,
  "72656c6174696f6e73686970": 491,
  "72656c6174696f6e7368697073": 492,
  "6265": 493,
  "626574": 494,
  "6265747765": 495,
  "6265747765656e": 496,
  "776f7264": 497,
  "776f726473": 498,
  "73656e74": 499,
  "73656e74656e63": 500,
  "73656e74656e636573": 501,
  "6e6575": 502,
  "6e657572": 503,
  "6e657572616c": 504,
  "7570": 505,
  "757064": 506,
  "75706461746573": 507,
  "697473": 508,
  "7573696e67": 509,
  "6772": 510,
  "67726164": 511,
  "6772616469": 512,
  "6772616469656e74": 513,
  "646573": 514,
  "64657363": 515,
  "64657363656e74": 516,
  "6261636b7072": 517,
  "6261636b70726f70": 518,
  "6261636b70726f706167": 519,
  "6261636b70726f7061676174696f6e": 520,
  "4164": 521,
  "4164616d": 522,
  "4164616d57": 523,
  "75736564": 524,
  "636865": 525,
  "63686563": 526,
  "636865636b": 527,
  "636865636b70": 528,
  "636865636b706f": 529,
  "636865636b706f696e": 530,
  "636865636b706f696e74": 531,
  "7361": 532,
  "7361766573": 533,
  "73746174": 534,
  "7374617465": 535,
  "736f": 536,
  "726573756d": 537,
  "726573756d65": 538,
  "537472": 539,
  "53747265": 540,
  "53747265616d": 541,
  "53747265616d6c69": 542,
  "53747265616d6c6974": 543,
  "64697370": 544,
  "646973706c6179": 545,
  "646973706c617973": 546,
  "4c41": 547,
  "4c4142": 548,
  "646173": 549,
  "64617368": 550,
  "64617368626f": 551,
  "64617368626f617264": 552,
  "70726f": 553,
  "70726f67": 554,
  "70726f67726573": 555,
  "70726f6772657373": 556,
  "70687973696373": 557,
  "696e76": 558,
  "696e766f": 559,
  "696e766f6c": 560,
  "696e766f6c766573": 561,
  "636f6e73657276": 562,
  "636f6e736572766174696f6e": 563,
  "636f6e736572766573": 564,
  "626f7468": 565,
  "696e656c6173746963": 566,
  "636f6e766572": 567,
  "636f6e7665727473": 568,
  "6f7468": 569,
  "6f74686572": 570,
  "666f726d73": 571,
  "6c696b": 572,
  "6c696b65": 573,
  "68656174": 574,
  "5768": 575,
  "5768656e": 576,
  "636f6c6c696465": 577,
  "74686579": 578,
  "6578": 579,
  "65786368": 580,
  "65786368616e67": 581,
  "65786368616e6765": 582,
  "636f6c6c69646572": 583,
  "616363": 584,
  "616363656c": 585,
  "616363656c6572": 586,
  "616363656c657261746573": 587,
  "6e656172": 588,
  "7370656564": 589,
  "6c696768": 590,
  "6c69676874": 591,
  "48696768": 592,
  "636f6c6c6973696f6e73": 593,
  "68656c": 594,
  "68656c70": 595,
  "7068797369636973": 596,
  "70687973696369737473": 597,
  "646973636f": 598,
  "646973636f766572": 599,
  "6e6577": 600,
  "666f7263": 601,
  "666f72636573": 602,
  "496e": 603,
  "646565": 604,
  "64656570": 605,
  "737461636b": 606,
  "6d75": 607,
  "6d756c": 608,
  "6d756c7469": 609,
  "6d756c7469706c65": 610,
  "6c6179657273": 611,
  "666f7277": 612,
  "666f7277617264": 613,
  "6e6574776f726b73": 614,
  "506f": 615,
  "506f7369": 616,
  "506f736974696f6e": 617,
  "506f736974696f6e616c": 618,
  "656d62656464696e6773": 619,
  "616c6c6f": 620,
  "616c6c6f77": 621,
  "756e": 622,
  "756e646572": 623,
  "756e6465727374": 624,
  "756e6465727374616e64": 625,
  "6f72646572": 626,
  "746f6b656e697a6572": 627,
  "73706c69": 628,
  "73706c697473": 629,
  "696e7465": 630,
  "696e746567": 631,
  "696e746567657273": 632,
  "63616c6c": 633,
  "63616c6c6564": 634,
  "4944": 635,
  "494473": 636,
  "4576": 637,
  "4576616c": 638,
  "4576616c75": 639,
  "4576616c756174": 640,
  "4576616c756174696e67": 641,
  "6769": 642,
  "6769766573": 643,
  "76616c69": 644,
  "76616c6964": 645,
  "76616c69646174696f6e": 646,
  "706572706c6578697479": 647,
  "506572706c6578697479": 648,
  "6d65": 649,
  "6d656173": 650,
  "6d65617375": 651,
  "6d65617375726573": 652,
  "686f": 653,
  "686f77": 654,
  "77656c": 655,
  "77656c6c": 656,
  "7072656469637473": 657,
  "73616d": 658,
  "73616d706c65": 659,
  "7363616c": 660,
  "7363616c65": 661,
  "31304d": 662,
  "7468656e": 663,
  "35304d": 664,
  "6675": 665,
  "667574": 666,
  "66757475": 667,
  "667574757265": 668,
  "6275": 669,
  "627569": 670,
  "6275696c": 671,
  "6275696c74": 672,
  "666565646261636b": 673,
  "6c6f6f70": 674,
  "6c6f6f7073": 675,
  "616c6967": 676,
  "616c69676e": 677,
  "616c69676e6d656e74": 678
}